00ad1669
000001fb
08fd00bd
047f0000
00000bc5
01c1077b
13110000
00000000
000014ab
00000000
18fb0095
00000000
014109ff
00000617
08c108d7
08b10000
023d03cf
09bb0000
000006eb
0000155d
000011e9
0757039d
000004f9
0c03016d
014308c1
16e50000
00000000
00001621
0b410000
00a90d5f
055d0000
00000853
041d073f
072d030d
010d0000
0000064b
01130065
00000fa5
050d055f
00000f3f
0c330000
00000000
155b00b5
04cb0000
00000f3d
02450c61
028f0157
00000000
0000023d
00190287
0dfb0000
000004dd
125d01c1
000006db
050f0079
00000fe9
00f30077
00000935
0000075f
01790913
04830000
000014fd
0637067f
06070000
00c902bd
0bf70000
00000ee1
0043040b
00001497
0ba7030d
00000000
00001807
01f91403
0000046f
04d911ef
04fb0000
0eb10000
0f0b0000
00000000
002309a1
05a30025
0f630000
000003f3
002f0000
1471005d
000003d7
01c70b45
00000bdb
132503d5
00000000
03390171
11cb0445
109d0000
0465017f
000002ef
038f03bd
08b50000
00dd0000
07ad06e5
000006f5
00000f71
09310b7f
0c690000
0295068b
10090000
00000ae9
00000395
00000385
08730e91
00000000
12130597
16270000
0b6b0000
000005db
00000927
00000c2f
0000030b
073f09ad
0adb0000
00000fc3
0a6f0000
09390000
13430000
04490000
00000d47
0f850617
01db0291
0b570000
00000d89
04d50665
099f0201
00000000
06e70000
08290677
03c30000
03af0a49
040f0000
07ed0000
069d0715
00000065
016f01d9
053d0bc9
000004dd
064f1015
139d0000
00000183
00000e57
01d10000
01830000
01230883
00000785
00000d5d
000000f5
11470000
14670000
00e90000
09bd0507
0000073b
000011b3
00000000
187d0000
124d0000
14670000
00000000
00001533
00001461
00000079
070106a5
04510373
069b0000
00431141
12710000
08a50000
0315046b
10eb0000
01430000
000016bb
061b12fb
00000000
080505b3
03dd0000
00000f95
02910427
09c70000
00a102fd
0000017d
04e9001b
018f06b9
10150000
0ff70000
000007fd
04d50000
082309c7
0b070000
00000867
000016af
04a90000
00000053
15990000
1aa70000
0ce90000
00bb09a9
04290000
0a310000
00000000
000006b1
06fd07b9
012d0000
04ad0f01
00000000
0d270223
035d0835
0bdd0000
0000029f
04fb095b
00000c75
00000321
02670c5d
00b10000
042d03af
000007f3
035d0ae5
17f70000
0000000d
00000c39
08530cd5
08330000
00000000
0000102b
022f035d
01c30000
04f5030f
0c11015b
022b0000
0000055f
00000d01
0cad0575
00000000
000009c7
000004c9
00000ecf
00000e73
00000000
000004b9
001b1a05
05b90000
0000041f
00000d7b
00000aad
08270c25
09650000
0f2d0229
00000031
034502e3
155b0000
000004f5
031b01f3
026905ab
00000000
0f810223
15df0000
03f30000
12ef0005
14230000
0b410000
0543089b
024b0000
06d900d9
00000000
000019bb
069102b5
0afb0101
00000123
00000000
000011d7
000011f9
00910be5
05ad0545
06950000
0c7505d1
02150000
007b01d1
000004bb
00000cad
085b037f
00000421
0000052d
000005bf
00001ad7
026b0000
06e70000
072b0193
00000000
01ef0dcd
0cbb0000
0000052f
133f079b
0ccf0000
00c50a0b
1a310000
06f50000
00000000
000008a1
0f990000
00210000
0e6501dd
00000579
055d0000
028b0053
00000bfd
0000099d
061f0000
00d3058d
00000d73
0f390000
062d0000
01950a65
02890000
02c30da1
00000000
00c9060f
06e70000
004f019f
0d250000
0155080d
0000018d
040f1543
0000002d
0ced08a1
00000000
0c65094f
000003b5
0ffb048b
0ac70000
000003c9
06e1118f
01d10000
01ff0cef
0079008f
0000003d
0000077d
0d5f0000
0a410271
01d90000
04570539
158d0000
0cb30000
011f027f
00000000
00000000
